DEPTH = 26;
WIDTH = 17;
ADDRESS_RADIX = HEX;
DATA_RADIX = BIN;
CONTENT
BEGIN
0 : 10110000100000110;
1 : 00110101111101000;
2 : 00111000110100110;
3 : 00000000000000000;
4 : 10110100111110110;
5 : 10110000111010010;
6 : 00110101000001001;
7 : 10110001001000001;
8 : 10110011011010011;
9 : 00000000000000000;
a : 00101111000110000;
b : 00100001011111110;
c : 10110001010110110;
d : 00110000001001110;
e : 00110100010101000;
f : 10101011001111000;
10 : 10110011101100000;
11 : 10110101010010001;
12 : 10110100100111101;
13 : 00110101100110111;
14 : 00101100010110000;
15 : 00110010010111111;
16 : 10110000000000111;
17 : 00110110111011000;
18 : 10110101000101100;
19 : 00110110001010001;
END;
