DEPTH = 26;
WIDTH = 17;
ADDRESS_RADIX = HEX;
DATA_RADIX = BIN;
CONTENT
BEGIN
0 : 00111000101101100;
1 : 00111001101010000;
2 : 00000000000000000;
3 : 00000000000000000;
4 : 10110100101100000;
5 : 10110101001011011;
6 : 10110101010010011;
7 : 00101000101101100;
8 : 10101111000011010;
9 : 00000000000000000;
a : 10110100110100111;
b : 00110100001101001;
c : 10110100101100011;
d : 10110100101000100;
e : 00110101100110011;
f : 10110010001011011;
10 : 00110101000010011;
11 : 00110101000100110;
12 : 10110010001110100;
13 : 10110101110011111;
14 : 10110100100111110;
15 : 00110000000110110;
16 : 00000000000000000;
17 : 10110111010011000;
18 : 10110100111011011;
19 : 00000000000000000;
END;
