DEPTH = 26;
WIDTH = 17;
ADDRESS_RADIX = HEX;
DATA_RADIX = BIN;
CONTENT
BEGIN
0 : 00111001101110010;
1 : 00111001101011001;
2 : 00000000000000000;
3 : 00000000000000000;
4 : 10110010100011110;
5 : 00110010000110111;
6 : 10110010101111000;
7 : 10110101101101101;
8 : 00110001110010010;
9 : 00000000000000000;
a : 10110000101001111;
b : 00110011010111111;
c : 10101110100001000;
d : 00110101001000110;
e : 10101101110100000;
f : 00110100101001000;
10 : 10110011100110110;
11 : 10110100111101110;
12 : 00110100110101010;
13 : 00110100000110001;
14 : 10110101110010110;
15 : 00110101010011111;
16 : 00000000000000000;
17 : 10110101100010011;
18 : 00110101101011111;
19 : 00000000000000000;
END;
