DEPTH = 26;
WIDTH = 17;
ADDRESS_RADIX = HEX;
DATA_RADIX = BIN;
CONTENT
BEGIN
0 : 00110101001001011;
1 : 00111000011010110;
2 : 10110100010110001;
3 : 00000000000000000;
4 : 00110000001111010;
5 : 10110100111111100;
6 : 10110101110001110;
7 : 10110010111001000;
8 : 10110100011110101;
9 : 00000000000000000;
a : 00110100010101001;
b : 00101100110111110;
c : 10110000100101111;
d : 00110110001011100;
e : 10101110110111101;
f : 00110101000010001;
10 : 10110100101111010;
11 : 00101111000001011;
12 : 10110000001101101;
13 : 10101111111010111;
14 : 10110001111100111;
15 : 00110101100100010;
16 : 10110000011101100;
17 : 00110110110010110;
18 : 10110110110111010;
19 : 00110111100010001;
END;
